{
  "eos": 0, 
  "UNK": 1, 
  "the": 2, 
  ",": 3, 
  ".": 4, 
  "c@@": 5, 
  "of": 6, 
  "in": 7, 
  "to": 8, 
  "and": 9, 
  "s": 10, 
  "a": 11, 
  "e": 12, 
  "s@@": 13, 
  "ing": 14, 
  "re@@": 15, 
  "p@@": 16, 
  "f@@": 17, 
  "y": 18, 
  "t": 19, 
  "&quot;": 20, 
  "in@@": 21, 
  "i@@": 22, 
  "ed": 23, 
  "g@@": 24, 
  "b@@": 25, 
  "e@@": 26, 
  "o@@": 27, 
  "t@@": 28, 
  "n@@": 29, 
  "u@@": 30, 
  "an@@": 31, 
  "on": 32, 
  "r@@": 33, 
  "en@@": 34, 
  "a@@": 35, 
  "w@@": 36, 
  "v@@": 37, 
  "h@@": 38, 
  "l@@": 39, 
  "st@@": 40, 
  "th@@": 41, 
  "S@@": 42, 
  "ar@@": 43, 
  "d": 44, 
  "d@@": 45, 
  "ti@@": 46, 
  "is": 47, 
  "al": 48, 
  "for": 49, 
  "an": 50, 
  "ac@@": 51, 
  "m@@": 52, 
  "un@@": 53, 
  "&apos;s": 54, 
  "ur@@": 55, 
  "or@@": 56, 
  "es": 57, 
  "A@@": 58, 
  "C@@": 59, 
  "al@@": 60, 
  "The": 61, 
  "that": 62, 
  "ted": 63, 
  "ts": 64, 
  "pro@@": 65, 
  "-@@": 66, 
  "B@@": 67, 
  "le@@": 68, 
  "on@@": 69, 
  "la@@": 70, 
  "di@@": 71, 
  "er@@": 72, 
  "m": 73, 
  "is@@": 74, 
  "es@@": 75, 
  "de@@": 76, 
  "P@@": 77, 
  "at@@": 78, 
  "D@@": 79, 
  "er": 80, 
  "0@@": 81, 
  "ol@@": 82, 
  "con@@": 83, 
  "k@@": 84, 
  "as": 85, 
  "tion": 86, 
  "M@@": 87, 
  "j@@": 88, 
  "o": 89, 
  "ation": 90, 
  "si@@": 91, 
  "with": 92, 
  "li@@": 93, 
  "as@@": 94, 
  "ma@@": 95, 
  "ly": 96, 
  "/": 97, 
  "l": 98, 
  "y@@": 99, 
  "us@@": 100, 
  "it@@": 101, 
  "will": 102, 
  "F@@": 103, 
  "ad@@": 104, 
  "ch@@": 105, 
  "te@@": 106, 
  "I@@": 107, 
  "il@@": 108, 
  "said": 109, 
  "op@@": 110, 
  "at": 111, 
  "T@@": 112, 
  "or": 113, 
  "ri@@": 114, 
  "ul@@": 115, 
  "ve": 116, 
  "k": 117, 
  "ia": 118, 
  "me@@": 119, 
  "ec@@": 120, 
  "1@@": 121, 
  "E@@": 122, 
  "are": 123, 
  "it": 124, 
  ")": 125, 
  "be": 126, 
  "(": 127, 
  "ex@@": 128, 
  "ic@@": 129, 
  "ers": 130, 
  "H@@": 131, 
  "by": 132, 
  "ro@@": 133, 
  "ent": 134, 
  "for@@": 135, 
  "ity": 136, 
  "en": 137, 
  "ic": 138, 
  "W@@": 139, 
  "th": 140, 
  "w": 141, 
  "G@@": 142, 
  "lo@@": 143, 
  "h": 144, 
  "ev@@": 145, 
  "R@@": 146, 
  "2@@": 147, 
  "ci@@": 148, 
  "ag@@": 149, 
  "O@@": 150, 
  "ist@@": 151, 
  "par@@": 152, 
  "res@@": 153, 
  "has": 154, 
  "ne@@": 155, 
  "N@@": 156, 
  "ap@@": 157, 
  "ov@@": 158, 
  "com@@": 159, 
  "ate": 160, 
  "et@@": 161, 
  "have": 162, 
  "from": 163, 
  "ter@@": 164, 
  "n": 165, 
  "im@@": 166, 
  "os@@": 167, 
  "am@@": 168, 
  "ra@@": 169, 
  "--": 170, 
  "U@@": 171, 
  "c": 172, 
  "ce": 173, 
  "z@@": 174, 
  "co@@": 175, 
  "J@@": 176, 
  "el@@": 177, 
  "EU": 178, 
  "Kosovo": 179, 
  "ment": 180, 
  "hi@@": 181, 
  "wh@@": 182, 
  "se@@": 183, 
  "ot@@": 184, 
  "not": 185, 
  "was": 186, 
  "ber": 187, 
  "its": 188, 
  "min@@": 189, 
  "em@@": 190, 
  "to@@": 191, 
  "L@@": 192, 
  "Th@@": 193, 
  "pos@@": 194, 
  "der": 195, 
  "ian": 196, 
  "he": 197, 
  "um@@": 198, 
  "K@@": 199, 
  "su@@": 200, 
  "de": 201, 
  "tions": 202, 
  "qu@@": 203, 
  "tr@@": 204, 
  "por@@": 205, 
  "ar": 206, 
  "pe@@": 207, 
  "me": 208, 
  "day": 209, 
  "om@@": 210, 
  "ver@@": 211, 
  "ch": 212, 
  "ter": 213, 
  "ir@@": 214, 
  "no@@": 215, 
  "pec@@": 216, 
  "this": 217, 
  "i": 218, 
  "all": 219, 
  "vi@@": 220, 
  "f": 221, 
  "per@@": 222, 
  "ou@@": 223, 
  "ded": 224, 
  "ary": 225, 
  "p": 226, 
  "wor@@": 227, 
  "ut@@": 228, 
  "V@@": 229, 
  "we@@": 230, 
  "pres@@": 231, 
  "inter@@": 232, 
  "do@@": 233, 
  "pre@@": 234, 
  "their": 235, 
  "gi@@": 236, 
  "European": 237, 
  "tur@@": 238, 
  "pri@@": 239, 
  "Minister": 240, 
  "government": 241, 
  "one": 242, 
  "so@@": 243, 
  "country": 244, 
  "ati@@": 245, 
  "also": 246, 
  "ding": 247, 
  "be@@": 248, 
  "ha@@": 249, 
  "&#91;": 250, 
  "&#93;": 251, 
  "den@@": 252, 
  "Serbia": 253, 
  "5": 254, 
  "men@@": 255, 
  "ere": 256, 
  "ty": 257, 
  "Alban@@": 258, 
  "mon@@": 259, 
  "sion": 260, 
  "ast": 261, 
  "le": 262, 
  "st": 263, 
  "sa@@": 264, 
  "200@@": 265, 
  "which": 266, 
  "national": 267, 
  "cri@@": 268, 
  "oun@@": 269, 
  ";": 270, 
  "ge": 271, 
  "est": 272, 
  "3@@": 273, 
  "dis@@": 274, 
  "A": 275, 
  "sti@@": 276, 
  "ces@@": 277, 
  "tes": 278, 
  ".@@": 279, 
  "ru@@": 280, 
  "iti@@": 281, 
  "mem@@": 282, 
  "ations": 283, 
  "new": 284, 
  "would": 285, 
  "uld": 286, 
  "year": 287, 
  "tu@@": 288, 
  "u": 289, 
  "his": 290, 
  "5@@": 291, 
  "port": 292, 
  "mis@@": 293, 
  "ab@@": 294, 
  "ed@@": 295, 
  "ge@@": 296, 
  "ans": 297, 
  "man@@": 298, 
  "ow@@": 299, 
  "ta@@": 300, 
  "go@@": 301, 
  "oc@@": 302, 
  "ay": 303, 
  "rec@@": 304, 
  "I": 305, 
  "sho@@": 306, 
  "S": 307, 
  "old": 308, 
  "and@@": 309, 
  "but": 310, 
  "ence": 311, 
  "4": 312, 
  "du@@": 313, 
  "ad": 314, 
  "ities": 315, 
  "been": 316, 
  "led": 317, 
  "comm@@": 318, 
  "ting": 319, 
  "sec@@": 320, 
  "were": 321, 
  "ina": 322, 
  "Turkey": 323, 
  "up": 324, 
  "ces": 325, 
  "ally": 326, 
  "ost": 327, 
  "other": 328, 
  "ovic": 329, 
  "ds": 330, 
  "0": 331, 
  "x@@": 332, 
  "In@@": 333, 
  "our": 334, 
  "ho@@": 335, 
  "ms": 336, 
  "vis@@": 337, 
  "Gre@@": 338, 
  "ye@@": 339, 
  "ce@@": 340, 
  "they": 341, 
  "pol@@": 342, 
  "pen@@": 343, 
  "he@@": 344, 
  "countries": 345, 
  "ile": 346, 
  "os": 347, 
  "BiH": 348, 
  "fin@@": 349, 
  "duc@@": 350, 
  "agre@@": 351, 
  "9": 352, 
  "bu@@": 353, 
  "Bulgar@@": 354, 
  "7": 355, 
  "ous": 356, 
  "ome": 357, 
  "ran@@": 358, 
  "sident": 359, 
  "more": 360, 
  "tra@@": 361, 
  "ff@@": 362, 
  "ure": 363, 
  "ing@@": 364, 
  "ten@@": 365, 
  "who": 366, 
  "pr@@": 367, 
  "inv@@": 368, 
  "In": 369, 
  "pub@@": 370, 
  "3": 371, 
  "als": 372, 
  "ish": 373, 
  "-": 374, 
  "v": 375, 
  "ther": 376, 
  "gu@@": 377, 
  "4@@": 378, 
  "we": 379, 
  "econom@@": 380, 
  "2": 381, 
  "6": 382, 
  "bo@@": 383, 
  "Macedonia": 384, 
  "mes": 385, 
  "ars": 386, 
  "b": 387, 
  "ement": 388, 
  "offic@@": 389, 
  "jo@@": 390, 
  "gh@@": 391, 
  "ons": 392, 
  "ser@@": 393, 
  "ine": 394, 
  "tri@@": 395, 
  "ple@@": 396, 
  "%": 397, 
  ":": 398, 
  "bet@@": 399, 
  "use": 400, 
  "dec@@": 401, 
  "eur@@": 402, 
  "ice": 403, 
  "Serbian": 404, 
  "Croatia": 405, 
  "ek": 406, 
  "1": 407, 
  "ug@@": 408, 
  "ned": 409, 
  "esday": 410, 
  "P": 411, 
  "ong": 412, 
  "sig@@": 413, 
  "out": 414, 
  "ws": 415, 
  "sup@@": 416, 
  "Roman@@": 417, 
  "ance": 418, 
  "after": 419, 
  "ust": 420, 
  "two": 421, 
  "ose": 422, 
  "elec@@": 423, 
  "gro@@": 424, 
  "Z@@": 425, 
  "political": 426, 
  "parti@@": 427, 
  "able": 428, 
  "bi@@": 429, 
  "ay@@": 430, 
  "der@@": 431, 
  "ste@@": 432, 
  "ors": 433, 
  "inclu@@": 434, 
  "Re@@": 435, 
  "cal": 436, 
  "than": 437, 
  "bec@@": 438, 
  "us": 439, 
  "Pre@@": 440, 
  "pla@@": 441, 
  "mer": 442, 
  "Prime": 443, 
  "over": 444, 
  "res": 445, 
  "co-@@": 446, 
  "gen@@": 447, 
  "ni@@": 448, 
  "est@@": 449, 
  "6@@": 450, 
  "hel@@": 451, 
  "cont@@": 452, 
  "It": 453, 
  "ef@@": 454, 
  "ion": 455, 
  "lic": 456, 
  "7@@": 457, 
  "ies": 458, 
  "Belgrade": 459, 
  "Turk@@": 460, 
  "about": 461, 
  "mar@@": 462, 
  "igh@@": 463, 
  "first": 464, 
  "say@@": 465, 
  "ople": 466, 
  "An@@": 467, 
  "ition": 468, 
  "fi@@": 469, 
  "te": 470, 
  "ved": 471, 
  "SETimes": 472, 
  "tiv@@": 473, 
  "Montenegr@@": 474, 
  "oreign": 475, 
  "lar@@": 476, 
  "av@@": 477, 
  "ised": 478, 
  "inc@@": 479, 
  "wn": 480, 
  "tak@@": 481, 
  "cial": 482, 
  "ain@@": 483, 
  "ent@@": 484, 
  "fac@@": 485, 
  "cording": 486, 
  "cy": 487, 
  "ght": 488, 
  "ree": 489, 
  "ber@@": 490, 
  "8@@": 491, 
  "g": 492, 
  "issu@@": 493, 
  "operation": 494, 
  "wel@@": 495, 
  "leg@@": 496, 
  "ruc@@": 497, 
  "00": 498, 
  "reas@@": 499, 
  "med": 500, 
  "bas@@": 501, 
  "ens": 502, 
  "pan@@": 503, 
  "ass@@": 504, 
  "Southeast": 505, 
  "Uni@@": 506, 
  "Times": 507, 
  "liam@@": 508, 
  "el": 509, 
  "ist": 510, 
  "ig@@": 511, 
  ",@@": 512, 
  "10": 513, 
  "Ser@@": 514, 
  "ince": 515, 
  "onal": 516, 
  "N": 517, 
  "the@@": 518, 
  "ak@@": 519, 
  "art@@": 520, 
  "da@@": 521, 
  "hip": 522, 
  "sp@@": 523, 
  "ren@@": 524, 
  "alk@@": 525, 
  "mo@@": 526, 
  "mak@@": 527, 
  "ard@@": 528, 
  "ir": 529, 
  "tan@@": 530, 
  "Mar@@": 531, 
  "organ@@": 532, 
  "Al@@": 533, 
  "tar@@": 534, 
  "mil@@": 535, 
  "bil@@": 536, 
  "rati@@": 537, 
  "Y@@": 538, 
  "dem@@": 539, 
  "8": 540, 
  "dur@@": 541, 
  "ges": 542, 
  "ob@@": 543, 
  "199@@": 544, 
  "over@@": 545, 
  "refor@@": 546, 
  "aj@@": 547, 
  "plo@@": 548, 
  "gr@@": 549, 
  "of@@": 550, 
  "Balk@@": 551, 
  "sel@@": 552, 
  "St@@": 553, 
  "ey": 554, 
  "x": 555, 
  "Se@@": 556, 
  "ece": 557, 
  "ek@@": 558, 
  "plan@@": 559, 
  "C": 560, 
  "Europ@@": 561, 
  "Ne@@": 562, 
  "lu@@": 563, 
  "9@@": 564, 
  "et": 565, 
  "11": 566, 
  "&apos@@": 567, 
  "NATO": 568, 
  "ener@@": 569, 
  "proj@@": 570, 
  "ffic@@": 571, 
  "oo@@": 572, 
  "sen@@": 573, 
  "cor@@": 574, 
  "gra@@": 575, 
  "ok@@": 576, 
  "20@@": 577, 
  "af@@": 578, 
  "fa@@": 579, 
  "coun@@": 580, 
  "so": 581, 
  "fer@@": 582, 
  "Mon@@": 583, 
  "man": 584, 
  "ise": 585, 
  "tem@@": 586, 
  "Croati@@": 587, 
  "Her@@": 588, 
  "ca@@": 589, 
  "dev@@": 590, 
  "ke@@": 591, 
  "ica": 592, 
  "K": 593, 
  "lik@@": 594, 
  "ul": 595, 
  "ski": 596, 
  "id": 597, 
  "Macedon@@": 598, 
  "ven@@": 599, 
  "Bosn@@": 600, 
  "ko": 601, 
  "ut": 602, 
  "men": 603, 
  "ans@@": 604, 
  "har@@": 605, 
  "abil@@": 606, 
  "pu@@": 607, 
  "adi@@": 608, 
  "ana": 609, 
  "&apos;@@": 610, 
  "Dem@@": 611, 
  "12": 612, 
  "wo@@": 613, 
  "ister": 614, 
  "Reuters": 615, 
  "um": 616, 
  "08": 617, 
  "fir@@": 618, 
  "E": 619, 
  "lan@@": 620, 
  "se": 621, 
  "Mil@@": 622, 
  "rup@@": 623, 
  "Ban@@": 624, 
  "oper@@": 625, 
  "ka": 626, 
  "il": 627, 
  "ik@@": 628, 
  "mages": 629, 
  "def@@": 630, 
  "ust@@": 631, 
  "Sar@@": 632, 
  "tic@@": 633, 
  "AFP": 634, 
  "Bos@@": 635, 
  "am": 636, 
  "a-@@": 637, 
  "ban@@": 638, 
  "ters": 639, 
  "ational": 640, 
  "r": 641, 
  "mu@@": 642, 
  "Par@@": 643, 
  "dent": 644, 
  "?": 645, 
  "tec@@": 646, 
  "da": 647, 
  "beli@@": 648, 
  "gar@@": 649, 
  "edi@@": 650, 
  "Ar@@": 651, 
  "ore": 652, 
  "tal@@": 653, 
  "id@@": 654, 
  "R": 655, 
  "–": 656, 
  "uk@@": 657, 
  "ten": 658, 
  "bun@@": 659, 
  "lay@@": 660, 
  "yo@@": 661, 
  "F": 662, 
  "politi@@": 663, 
  "19@@": 664, 
  "Eur@@": 665, 
  "lar": 666, 
  "az@@": 667, 
  "uc@@": 668, 
  "len@@": 669, 
  "ask@@": 670, 
  "Kos@@": 671, 
  "Serbi@@": 672, 
  "her": 673, 
  "mer@@": 674, 
  "ola@@": 675, 
  "Kar@@": 676, 
  "D": 677, 
  "hal@@": 678, 
  "T": 679, 
  "ore@@": 680, 
  "ele@@": 681, 
  "ak": 682, 
  "ve@@": 683, 
  "ign": 684, 
  "key": 685, 
  "Min@@": 686, 
  "kil@@": 687, 
  "isti@@": 688, 
  "mes@@": 689, 
  "kar@@": 690, 
  "den": 691, 
  "govern@@": 692, 
  "j": 693, 
  "z": 694, 
  "$": 695, 
  "try": 696, 
  "son": 697, 
  "ket@@": 698, 
  "ith": 699, 
  "im": 700, 
  "ger@@": 701, 
  "Y": 702, 
  "son@@": 703, 
  "ler@@": 704, 
  "li": 705, 
  "Rom@@": 706, 
  "ki": 707, 
  "ill": 708, 
  "X": 709, 
  "ha": 710, 
  "mas@@": 711, 
  "q": 712, 
  "SE@@": 713, 
  "org@@": 714, 
  "ta": 715, 
  "O": 716, 
  "’": 717, 
  "sor@@": 718, 
  "iz@@": 719, 
  "Sou@@": 720, 
  "L": 721, 
  "B": 722, 
  "ti": 723, 
  "M": 724, 
  "ler": 725, 
  "V": 726, 
  "oy@@": 727, 
  "dan": 728, 
  "ca": 729, 
  "tut@@": 730, 
  "la": 731, 
  "Pri@@": 732, 
  "san@@": 733, 
  "ko@@": 734, 
  "q@@": 735, 
  "ya": 736, 
  "lu": 737, 
  "Q@@": 738, 
  "tin": 739, 
  "…": 740, 
  "X@@": 741, 
  "ort@@": 742, 
  "Cro@@": 743, 
  "ere@@": 744, 
  "Ti@@": 745, 
  "istan": 746, 
  "mal@@": 747, 
  "ah@@": 748, 
  "tir@@": 749, 
  "ey@@": 750, 
  "un": 751, 
  "onom@@": 752, 
  "Bel@@": 753, 
  "alar@@": 754, 
  "di": 755, 
  "ama@@": 756, 
  "ece@@": 757, 
  "gel@@": 758, 
  "wo": 759, 
  "G": 760, 
  "ik": 761, 
  "top@@": 762, 
  "bir@@": 763, 
  "hur@@": 764, 
  "tes@@": 765, 
  "ean": 766, 
  "uz@@": 767, 
  "Z": 768, 
  "overn@@": 769, 
  "ini": 770, 
  "yor": 771, 
  "sa": 772, 
  "Kosov@@": 773, 
  "Bi@@": 774, 
  "ma": 775, 
  "&@@": 776, 
  "yer": 777, 
  "Belgra@@": 778, 
  "!": 779, 
  "hak@@": 780, 
  "yon@@": 781, 
  "W": 782, 
  "Mak@@": 783, 
  "iki": 784, 
  "azar@@": 785, 
  "ster@@": 786, 
  "“": 787, 
  "J": 788, 
  "bak@@": 789, 
  "cak": 790, 
  "may@@": 791, 
  "Tur@@": 792, 
  "H": 793, 
  "”": 794, 
  "bul@@": 795, 
  "sav@@": 796, 
  "AT@@": 797, 
  "rom": 798, 
  "theast": 799, 
  "sil@@": 800, 
  "ken": 801, 
  "Bak@@": 802, 
  "bi": 803, 
  "ken@@": 804, 
  "iy@@": 805, 
  "tries": 806, 
  "si": 807, 
  "nav@@": 808, 
  "alan@@": 809, 
  "ich": 810, 
  "iz": 811, 
  "+": 812, 
  "stan": 813, 
  "yle": 814, 
  "quot@@": 815, 
  "ć": 816, 
  "Makedon@@": 817, 
  "U": 818, 
  "kul@@": 819, 
  "ih@@": 820, 
  "ye": 821, 
  "dir@@": 822, 
  "uy@@": 823, 
  "mak": 824, 
  "Av@@": 825, 
  "NAT@@": 826, 
  "kal@@": 827, 
  "Bul@@": 828, 
  "ada@@": 829, 
  "kon@@": 830, 
  "é": 831, 
  "ç@@": 832, 
  "sek": 833, 
  "kay@@": 834, 
  "İ@@": 835, 
  "geli@@": 836, 
  "yar@@": 837, 
  "aki": 838, 
  "ır": 839, 
  "tesi": 840, 
  "AB@@": 841, 
  "Ü@@": 842, 
  "Kosova": 843, 
  "iler": 844, 
  "yard@@": 845, 
  "ilgili": 846, 
  "öz@@": 847, 
  "bir": 848, 
  "una": 849, 
  "Türkiye": 850, 
  "Mac@@": 851, 
  "kat@@": 852, 
  "alt@@": 853, 
  "BH": 854, 
  "gele@@": 855, 
  "mek": 856, 
  "š@@": 857, 
  "Tür@@": 858, 
  "acak": 859, 
  "luk": 860, 
  "bu": 861, 
  "Ž@@": 862, 
  "yak@@": 863, 
  "ñ@@": 864, 
  "é@@": 865, 
  "Ç@@": 866, 
  "ğ@@": 867, 
  "ında": 868, 
  "kadar": 869, 
  "&#@@": 870, 
  "ı@@": 871, 
  "Cumhur@@": 872, 
  "isi": 873, 
  "á@@": 874, 
  "č@@": 875, 
  "etti": 876, 
  "yas@@": 877, 
  "ıl@@": 878, 
  "FP": 879, 
  "adar": 880, 
  "kur@@": 881, 
  "ü@@": 882, 
  "&apos;a": 883, 
  "ük@@": 884, 
  "‘": 885, 
  "daki": 886, 
  "kap@@": 887, 
  "ˈ": 888, 
  "yan@@": 889, 
  "olan": 890, 
  "yon": 891, 
  "lü@@": 892
}