{
  "eos": 0, 
  "UNK": 1, 
  ",": 2, 
  ".": 3, 
  "k@@": 4, 
  "i": 5, 
  "t@@": 6, 
  "ve": 7, 
  "d@@": 8, 
  "y@@": 9, 
  "an@@": 10, 
  "ar@@": 11, 
  "bir": 12, 
  "an": 13, 
  "&quot;": 14, 
  "ı": 15, 
  "a": 16, 
  "al@@": 17, 
  "ç@@": 18, 
  "m@@": 19, 
  "s@@": 20, 
  "ü@@": 21, 
  "de": 22, 
  "z@@": 23, 
  "b@@": 24, 
  "il@@": 25, 
  "ş@@": 26, 
  "l@@": 27, 
  "ol@@": 28, 
  "v@@": 29, 
  "da": 30, 
  "r@@": 31, 
  "e@@": 32, 
  "ay@@": 33, 
  "&apos;@@": 34, 
  "u": 35, 
  "B@@": 36, 
  "c@@": 37, 
  "g@@": 38, 
  "h@@": 39, 
  "S@@": 40, 
  "or@@": 41, 
  "le@@": 42, 
  "e": 43, 
  "n@@": 44, 
  "me@@": 45, 
  "at@@": 46, 
  "ti@@": 47, 
  "la@@": 48, 
  "K@@": 49, 
  "k": 50, 
  "er@@": 51, 
  "i@@": 52, 
  "ı@@": 53, 
  "ğ@@": 54, 
  "iş@@": 55, 
  "as@@": 56, 
  "f@@": 57, 
  "di@@": 58, 
  "et@@": 59, 
  "te@@": 60, 
  "u@@": 61, 
  "a@@": 62, 
  "ında": 63, 
  "ak@@": 64, 
  "en": 65, 
  "D@@": 66, 
  "ya": 67, 
  "m": 68, 
  "ü": 69, 
  "in": 70, 
  "re@@": 71, 
  "ul@@": 72, 
  "en@@": 73, 
  "A@@": 74, 
  "de@@": 75, 
  "M@@": 76, 
  "lar": 77, 
  "ın": 78, 
  "is@@": 79, 
  "ün@@": 80, 
  "l": 81, 
  "im@@": 82, 
  "es@@": 83, 
  "in@@": 84, 
  "P@@": 85, 
  "G@@": 86, 
  "o@@": 87, 
  "ma@@": 88, 
  "um@@": 89, 
  "t": 90, 
  "inde": 91, 
  "ır@@": 92, 
  "lan@@": 93, 
  "p@@": 94, 
  "ıl@@": 95, 
  "leri": 96, 
  "di": 97, 
  "un@@": 98, 
  "T@@": 99, 
  "ine": 100, 
  "az@@": 101, 
  "için": 102, 
  "den": 103, 
  "ları": 104, 
  "/": 105, 
  "İ@@": 106, 
  "ler": 107, 
  "0@@": 108, 
  "lar@@": 109, 
  "li": 110, 
  "n": 111, 
  "ver@@": 112, 
  "E@@": 113, 
  "ma": 114, 
  "iy@@": 115, 
  "li@@": 116, 
  "dı": 117, 
  "ler@@": 118, 
  "ek@@": 119, 
  "un": 120, 
  "ir@@": 121, 
  "inin": 122, 
  "ad@@": 123, 
  "ö@@": 124, 
  "ım@@": 125, 
  "z": 126, 
  "bir@@": 127, 
  "ın@@": 128, 
  "j@@": 129, 
  "am@@": 130, 
  "H@@": 131, 
  "bu": 132, 
  "la": 133, 
  "on@@": 134, 
  "r": 135, 
  "1@@": 136, 
  "ına": 137, 
  "yap@@": 138, 
  "ç": 139, 
  "ön@@": 140, 
  "ış@@": 141, 
  "el@@": 142, 
  "ar": 143, 
  "Y@@": 144, 
  "R@@": 145, 
  "ması": 146, 
  "2@@": 147, 
  "gü@@": 148, 
  "sa@@": 149, 
  "anı": 150, 
  "ile": 151, 
  "ek": 152, 
  "len@@": 153, 
  "ik@@": 154, 
  "ının": 155, 
  "te": 156, 
  "ini": 157, 
  "ur@@": 158, 
  "ke@@": 159, 
  "at": 160, 
  "me": 161, 
  "bil@@": 162, 
  "yor": 163, 
  "F@@": 164, 
  "ını": 165, 
  "ür@@": 166, 
  "ra@@": 167, 
  "O@@": 168, 
  "aç@@": 169, 
  "yıl@@": 170, 
  "iz@@": 171, 
  "le": 172, 
  "ğini": 173, 
  "AB": 174, 
  "C@@": 175, 
  "lik": 176, 
  "se@@": 177, 
  "el": 178, 
  "uy@@": 179, 
  "ti": 180, 
  "&apos;nin": 181, 
  "ık": 182, 
  "ri@@": 183, 
  "dan": 184, 
  "os@@": 185, 
  "cak": 186, 
  "ha@@": 187, 
  "si@@": 188, 
  "mak": 189, 
  "lı": 190, 
  "ta": 191, 
  "da@@": 192, 
  "p": 193, 
  "baş@@": 194, 
  "N@@": 195, 
  "ık@@": 196, 
  "ların": 197, 
  "av@@": 198, 
  "ıyor": 199, 
  "al": 200, 
  "aş@@": 201, 
  "ük@@": 202, 
  "Kosova": 203, 
  "ge@@": 204, 
  ")": 205, 
  "(": 206, 
  "ye": 207, 
  "ıs@@": 208, 
  "laş@@": 209, 
  "&apos;nın": 210, 
  "ki": 211, 
  "om@@": 212, 
  "olarak": 213, 
  "tü@@": 214, 
  "&apos;da": 215, 
  "tir@@": 216, 
  "ör@@": 217, 
  "günü": 218, 
  "o": 219, 
  "ından": 220, 
  "it@@": 221, 
  "s": 222, 
  "L@@": 223, 
  "iler@@": 224, 
  "I@@": 225, 
  "&apos;ın": 226, 
  "et": 227, 
  "mesi": 228, 
  "kur@@": 229, 
  "ım": 230, 
  "der@@": 231, 
  "gi@@": 232, 
  "-@@": 233, 
  "An@@": 234, 
  "karş@@": 235, 
  "ağ@@": 236, 
  "kon@@": 237, 
  "unda": 238, 
  "ab@@": 239, 
  "ev@@": 240, 
  "us@@": 241, 
  "er": 242, 
  "du": 243, 
  "art@@": 244, 
  "bulun@@": 245, 
  "top@@": 246, 
  "tı": 247, 
  "alar@@": 248, 
  "ış": 249, 
  "değ@@": 250, 
  "ok@@": 251, 
  "U@@": 252, 
  "sor@@": 253, 
  "ül@@": 254, 
  "st@@": 255, 
  "lik@@": 256, 
  "öz@@": 257, 
  "Sırbistan": 258, 
  "olan": 259, 
  "geç@@": 260, 
  "im": 261, 
  "and@@": 262, 
  "alı": 263, 
  "kil@@": 264, 
  "daha": 265, 
  "lerin": 266, 
  "ov@@": 267, 
  "yer@@": 268, 
  "uş@@": 269, 
  "lık": 270, 
  "v": 271, 
  "tar@@": 272, 
  "kay@@": 273, 
  "ey@@": 274, 
  "iyor": 275, 
  "ız@@": 276, 
  "mes@@": 277, 
  ":": 278, 
  "lay@@": 279, 
  "ülke@@": 280, 
  "dedi": 281, 
  "ır": 282, 
  "ası": 283, 
  "Bu": 284, 
  "5": 285, 
  "&apos;in": 286, 
  "ne@@": 287, 
  "deki": 288, 
  "hi@@": 289, 
  "iç@@": 290, 
  "gerek@@": 291, 
  "leş@@": 292, 
  "uz@@": 293, 
  "em@@": 294, 
  "ındaki": 295, 
  "ir": 296, 
  "ca": 297, 
  "du@@": 298, 
  "maya": 299, 
  "ap@@": 300, 
  "&apos;n@@": 301, 
  "-": 302, 
  "iz": 303, 
  "ce": 304, 
  "ığı": 305, 
  "V@@": 306, 
  "mek": 307, 
  "ik": 308, 
  "ro@@": 309, 
  "he@@": 310, 
  "inden": 311, 
  "sü@@": 312, 
  "ş": 313, 
  "0": 314, 
  "isi": 315, 
  "may@@": 316, 
  "yon@@": 317, 
  "kal@@": 318, 
  "iler": 319, 
  "yaş@@": 320, 
  "Avrupa": 321, 
  "hal@@": 322, 
  "son@@": 323, 
  "200@@": 324, 
  "söyledi": 325, 
  "ac@@": 326, 
  "iç": 327, 
  "hüküme@@": 328, 
  "Ç@@": 329, 
  "man@@": 330, 
  "yon": 331, 
  "mil@@": 332, 
  "mas@@": 333, 
  "ce@@": 334, 
  "yak@@": 335, 
  "diği": 336, 
  "ih@@": 337, 
  "çok": 338, 
  "sağ@@": 339, 
  "’": 340, 
  "iş": 341, 
  "larını": 342, 
  "dur@@": 343, 
  "ta@@": 344, 
  "ığ@@": 345, 
  "yet@@": 346, 
  "Türkiye": 347, 
  "malar@@": 348, 
  "yeni": 349, 
  "gel@@": 350, 
  "lerini": 351, 
  "ği": 352, 
  "men@@": 353, 
  "mü@@": 354, 
  "on": 355, 
  "belir@@": 356, 
  "4": 357, 
  "7": 358, 
  "böl@@": 359, 
  "par@@": 360, 
  "gen@@": 361, 
  "tur@@": 362, 
  "acak": 363, 
  "çık@@": 364, 
  "oviç": 365, 
  "ter@@": 366, 
  "gör@@": 367, 
  "anl@@": 368, 
  "sav@@": 369, 
  "yi": 370, 
  "&apos;a": 371, 
  "su@@": 372, 
  "ığını": 373, 
  "göre": 374, 
  "uk@@": 375, 
  "bak@@": 376, 
  "edil@@": 377, 
  "lerinin": 378, 
  "&#93;": 379, 
  "&#91;": 380, 
  "seç@@": 381, 
  "başkanı": 382, 
  "önem@@": 383, 
  "ıyla": 384, 
  "unu": 385, 
  "katıl@@": 386, 
  "Bak@@": 387, 
  "iki": 388, 
  "ak": 389, 
  "ece@@": 390, 
  "konus@@": 391, 
  "3": 392, 
  "lerine": 393, 
  "yle": 394, 
  "ola@@": 395, 
  "2": 396, 
  "9": 397, 
  "bi@@": 398, 
  "3@@": 399, 
  "ana": 400, 
  "Sırp": 401, 
  "esi": 402, 
  "yol@@": 403, 
  "ni@@": 404, 
  "yas@@": 405, 
  "liği": 406, 
  "doğ@@": 407, 
  "dir@@": 408, 
  "5@@": 409, 
  "çalış@@": 410, 
  "tarafından": 411, 
  "yüz@@": 412, 
  "6": 413, 
  "ven@@": 414, 
  "anlaş@@": 415, 
  "asında": 416, 
  "yar@@": 417, 
  "Z@@": 418, 
  "ken@@": 419, 
  "yer": 420, 
  "yıl": 421, 
  "ama@@": 422, 
  "göster@@": 423, 
  "olduğunu": 424, 
  "bi": 425, 
  "kar@@": 426, 
  "y": 427, 
  "Makedonya": 428, 
  "dığı": 429, 
  "rı@@": 430, 
  "oy@@": 431, 
  "larının": 432, 
  "ah@@": 433, 
  "um": 434, 
  "uslararası": 435, 
  "gö@@": 436, 
  "J@@": 437, 
  "ız": 438, 
  "suç@@": 439, 
  "gele@@": 440, 
  "göre@@": 441, 
  "büyük": 442, 
  "düş@@": 443, 
  "1": 444, 
  "hak@@": 445, 
  "arasında": 446, 
  "sür@@": 447, 
  "üy@@": 448, 
  "mu@@": 449, 
  "etti": 450, 
  "üye@@": 451, 
  "ten": 452, 
  "başk@@": 453, 
  "gün@@": 454, 
  "ort@@": 455, 
  "den@@": 456, 
  "tesi": 457, 
  "ken": 458, 
  "düzen@@": 459, 
  "devam": 460, 
  "lu@@": 461, 
  "BH": 462, 
  "alt@@": 463, 
  "Başbak@@": 464, 
  "&apos;daki": 465, 
  "lü@@": 466, 
  "Hırvatistan": 467, 
  "ılar": 468, 
  "liğ@@": 469, 
  "ilgili": 470, 
  "ıy@@": 471, 
  "ed@@": 472, 
  "is": 473, 
  "Yun@@": 474, 
  "mek@@": 475, 
  "lere": 476, 
  "deste@@": 477, 
  "Ü@@": 478, 
  "acağ@@": 479, 
  "sek": 480, 
  "müz@@": 481, 
  "say@@": 482, 
  "mak@@": 483, 
  "sır@@": 484, 
  "haber@@": 485, 
  "ekonom@@": 486, 
  "lu": 487, 
  "ülk@@": 488, 
  "ot@@": 489, 
  "eş@@": 490, 
  "men": 491, 
  "kadar": 492, 
  "id@@": 493, 
  "ru@@": 494, 
  "ıla@@": 495, 
  "son": 496, 
  "tem@@": 497, 
  "açıkla@@": 498, 
  "ut@@": 499, 
  "4@@": 500, 
  "san@@": 501, 
  "istan": 502, 
  "Cumhur@@": 503, 
  "edi@@": 504, 
  "ecek": 505, 
  "ger@@": 506, 
  "bun@@": 507, 
  "ük": 508, 
  "isti@@": 509, 
  "il": 510, 
  "aya": 511, 
  "ist@@": 512, 
  "bağ@@": 513, 
  "ut": 514, 
  "ısı": 515, 
  "bek@@": 516, 
  "önün@@": 517, 
  "lara": 518, 
  "iyle": 519, 
  "ye@@": 520, 
  "dev@@": 521, 
  "una": 522, 
  "başla@@": 523, 
  "indeki": 524, 
  "mada": 525, 
  "&apos;dan": 526, 
  "şek@@": 527, 
  "cı": 528, 
  "üzere": 529, 
  "görüş@@": 530, 
  "siyasi": 531, 
  ";": 532, 
  "kü@@": 533, 
  "söz@@": 534, 
  "tin": 535, 
  "masını": 536, 
  "ılan": 537, 
  "ABD": 538, 
  "üzer@@": 539, 
  "tan@@": 540, 
  "tes@@": 541, 
  "alan@@": 542, 
  "kap@@": 543, 
  "Arnavutluk": 544, 
  "mal@@": 545, 
  "Par@@": 546, 
  "iti@@": 547, 
  "uz": 548, 
  "K": 549, 
  "Belgrad": 550, 
  "zam@@": 551, 
  "yöne@@": 552, 
  "f": 553, 
  "ğ": 554, 
  "kul@@": 555, 
  "unun": 556, 
  ",@@": 557, 
  "be@@": 558, 
  "M": 559, 
  "&apos;de": 560, 
  "Ş@@": 561, 
  "yaptığı": 562, 
  "sonra": 563, 
  "faz@@": 564, 
  "tır@@": 565, 
  "kab@@": 566, 
  "olduğu": 567, 
  "ic@@": 568, 
  "yan@@": 569, 
  "tak@@": 570, 
  "ileri": 571, 
  "iyet@@": 572, 
  "SETimes": 573, 
  "ele@@": 574, 
  "%": 575, 
  "uyor": 576, 
  "ser@@": 577, 
  "10": 578, 
  "Ö@@": 579, 
  "si": 580, 
  "konuş@@": 581, 
  "gerçek@@": 582, 
  "ec@@": 583, 
  "Karada@@": 584, 
  "yo@@": 585, 
  "daki": 586, 
  "Bulgaristan": 587, 
  "meye": 588, 
  "mer@@": 589, 
  "aş": 590, 
  "geli@@": 591, 
  "karar@@": 592, 
  "yen": 593, 
  "ülkenin": 594, 
  "masına": 595, 
  "fa@@": 596, 
  "ere@@": 597, 
  "azar@@": 598, 
  "Bosn@@": 599, 
  "Ar@@": 600, 
  "P": 601, 
  "diğer": 602, 
  "yard@@": 603, 
  "rec@@": 604, 
  "plan@@": 605, 
  "8": 606, 
  "ey": 607, 
  "--": 608, 
  "sil@@": 609, 
  "alk@@": 610, 
  "Times": 611, 
  "tut@@": 612, 
  "abil@@": 613, 
  "Roman@@": 614, 
  "or": 615, 
  "ve@@": 616, 
  "ci@@": 617, 
  "ço@@": 618, 
  "sa": 619, 
  "ul": 620, 
  "ski": 621, 
  "ise": 622, 
  "ko@@": 623, 
  "bo@@": 624, 
  "pro@@": 625, 
  "6@@": 626, 
  "ans@@": 627, 
  "8@@": 628, 
  "7@@": 629, 
  "sonr@@": 630, 
  "her": 631, 
  "Mar@@": 632, 
  "res@@": 633, 
  "ran@@": 634, 
  "ere": 635, 
  "gu@@": 636, 
  "ard@@": 637, 
  "European": 638, 
  "Southeast": 639, 
  "op@@": 640, 
  "tal@@": 641, 
  "Baş@@": 642, 
  "A": 643, 
  "öl@@": 644, 
  "har@@": 645, 
  "arak": 646, 
  "do@@": 647, 
  "ay": 648, 
  "11": 649, 
  "ket@@": 650, 
  "Balk@@": 651, 
  "ka": 652, 
  "NATO": 653, 
  "refor@@": 654, 
  "199@@": 655, 
  "Her@@": 656, 
  "se": 657, 
  "bas@@": 658, 
  "ask@@": 659, 
  "uc@@": 660, 
  "kat@@": 661, 
  "çek@@": 662, 
  "ina": 663, 
  "hip": 664, 
  "C": 665, 
  "Al@@": 666, 
  "h": 667, 
  "a-@@": 668, 
  "ca@@": 669, 
  "inc@@": 670, 
  "üş@@": 671, 
  "9@@": 672, 
  "12": 673, 
  "Tür@@": 674, 
  "bu@@": 675, 
  ".@@": 676, 
  "yen@@": 677, 
  "parti@@": 678, 
  "duğ@@": 679, 
  "gil@@": 680, 
  "tr@@": 681, 
  "pol@@": 682, 
  "Hırv@@": 683, 
  "af@@": 684, 
  "mem@@": 685, 
  "söyle@@": 686, 
  "os": 687, 
  "Mil@@": 688, 
  "ko": 689, 
  "tic@@": 690, 
  "proj@@": 691, 
  "tec@@": 692, 
  "dem@@": 693, 
  "aki": 694, 
  "20@@": 695, 
  "Dem@@": 696, 
  "ener@@": 697, 
  "fer@@": 698, 
  "00": 699, 
  "man": 700, 
  "d": 701, 
  "Kar@@": 702, 
  "iye": 703, 
  "g": 704, 
  "Sar@@": 705, 
  "ber@@": 706, 
  "ica": 707, 
  "def@@": 708, 
  "be": 709, 
  "ch@@": 710, 
  "Reuters": 711, 
  "08": 712, 
  "of@@": 713, 
  "adi@@": 714, 
  "W@@": 715, 
  "Ban@@": 716, 
  "üz@@": 717, 
  "Pri@@": 718, 
  "ren@@": 719, 
  "gra@@": 720, 
  "büy@@": 721, 
  "söy@@": 722, 
  "ati@@": 723, 
  "ust@@": 724, 
  "it": 725, 
  "tiv@@": 726, 
  "Arnav@@": 727, 
  "–": 728, 
  "taraf@@": 729, 
  "ist": 730, 
  "lo@@": 731, 
  "ban@@": 732, 
  "to": 733, 
  "ty": 734, 
  "S": 735, 
  "AFP": 736, 
  "mages": 737, 
  "luk": 738, 
  "der": 739, 
  "ge": 740, 
  "ef@@": 741, 
  "Mak@@": 742, 
  "vi@@": 743, 
  "tu@@": 744, 
  "bul@@": 745, 
  "olduğ@@": 746, 
  "diğ@@": 747, 
  "umhur@@": 748, 
  "düz@@": 749, 
  "sti@@": 750, 
  "ug@@": 751, 
  "to@@": 752, 
  "politi@@": 753, 
  "?": 754, 
  "öne@@": 755, 
  "pan@@": 756, 
  "F": 757, 
  "us": 758, 
  "sö@@": 759, 
  "üküme@@": 760, 
  "T": 761, 
  "per@@": 762, 
  "Re@@": 763, 
  "am": 764, 
  "Kos@@": 765, 
  "Kosov@@": 766, 
  "ces@@": 767, 
  "b": 768, 
  "D": 769, 
  "dis@@": 770, 
  "rati@@": 771, 
  "for@@": 772, 
  "th@@": 773, 
  "min@@": 774, 
  "Sır@@": 775, 
  "agre@@": 776, 
  "Bul@@": 777, 
  "Sırb@@": 778, 
  "dec@@": 779, 
  "siyas@@": 780, 
  "tri@@": 781, 
  "ece": 782, 
  "â@@": 783, 
  "“": 784, 
  "oper@@": 785, 
  "as": 786, 
  "organ@@": 787, 
  "aj@@": 788, 
  "j": 789, 
  "19@@": 790, 
  "yapt@@": 791, 
  "R": 792, 
  "Ne@@": 793, 
  "Avrup@@": 794, 
  "açık@@": 795, 
  "c": 796, 
  "ıl": 797, 
  "mo@@": 798, 
  "es": 799, 
  "Av@@": 800, 
  "st": 801, 
  "mis@@": 802, 
  "”": 803, 
  "up": 804, 
  "so@@": 805, 
  "sen@@": 806, 
  "St@@": 807, 
  "oo@@": 808, 
  "E": 809, 
  "ing@@": 810, 
  "fin@@": 811, 
  "day": 812, 
  "est": 813, 
  "I": 814, 
  "Se@@": 815, 
  "fir@@": 816, 
  "no@@": 817, 
  "Y": 818, 
  "rup@@": 819, 
  "tra@@": 820, 
  "Eur@@": 821, 
  "pr@@": 822, 
  "ff@@": 823, 
  "bet@@": 824, 
  "ter": 825, 
  "Bel@@": 826, 
  "oc@@": 827, 
  "Arnavut@@": 828, 
  "ada@@": 829, 
  "ha": 830, 
  "sel@@": 831, 
  "ber": 832, 
  "&apos@@": 833, 
  "ia": 834, 
  "ag@@": 835, 
  "ans": 836, 
  "ob@@": 837, 
  "alış@@": 838, 
  "gar@@": 839, 
  "gr@@": 840, 
  "H": 841, 
  "w@@": 842, 
  "In@@": 843, 
  "mar@@": 844, 
  "pu@@": 845, 
  "Türk@@": 846, 
  "plo@@": 847, 
  "org@@": 848, 
  "Ser@@": 849, 
  "X": 850, 
  "ükü@@": 851, 
  "w": 852, 
  "sp@@": 853, 
  "ad": 854, 
  "V": 855, 
  "ou@@": 856, 
  "O": 857, 
  "Rom@@": 858, 
  "L": 859, 
  "ent@@": 860, 
  "co@@": 861, 
  "B": 862, 
  "por@@": 863, 
  "Mac@@": 864, 
  "â": 865, 
  "fi@@": 866, 
  "hel@@": 867, 
  "The": 868, 
  "eur@@": 869, 
  "arası": 870, 
  "ho@@": 871, 
  "N": 872, 
  "x@@": 873, 
  "ilgil@@": 874, 
  "wn": 875, 
  "Tur@@": 876, 
  "ing": 877, 
  "ste@@": 878, 
  "G": 879, 
  "Ti@@": 880, 
  "ian": 881, 
  "ate": 882, 
  "ten@@": 883, 
  "are": 884, 
  "SE@@": 885, 
  "ig@@": 886, 
  "pe@@": 887, 
  "est@@": 888, 
  "ws": 889, 
  "pla@@": 890, 
  "Makedon@@": 891, 
  "kenin": 892, 
  "ence": 893, 
  "ose": 894, 
  "ost": 895, 
  "he": 896, 
  "ent": 897, 
  "pos@@": 898, 
  "and": 899, 
  "Th@@": 900, 
  "ow@@": 901, 
  "X@@": 902, 
  "Z": 903, 
  "ince": 904, 
  "pri@@": 905, 
  "go@@": 906, 
  "sup@@": 907, 
  "Hır@@": 908, 
  "ass@@": 909, 
  "ic": 910, 
  "id": 911, 
  "of": 912, 
  "x": 913, 
  "Bi@@": 914, 
  "ice": 915, 
  "ore": 916, 
  "all": 917, 
  "Pre@@": 918, 
  "ion": 919, 
  "we@@": 920, 
  "Bulgar@@": 921, 
  "liam@@": 922, 
  "pre@@": 923, 
  "&apos;s": 924, 
  "ð@@": 925, 
  "Gre@@": 926, 
  "ers": 927, 
  "mer": 928, 
  "Mon@@": 929, 
  "res": 930, 
  "inter@@": 931, 
  "ster@@": 932, 
  "AB@@": 933, 
  "sig@@": 934, 
  "W": 935, 
  "national": 936, 
  "by": 937, 
  "ore@@": 938, 
  "stan": 939, 
  "pen@@": 940, 
  "mon@@": 941, 
  "ed": 942, 
  "bec@@": 943, 
  "AT@@": 944, 
  "ch": 945, 
  "port": 946, 
  "ple@@": 947, 
  "vis@@": 948, 
  "î": 949, 
  "ding": 950, 
  "Europ@@": 951, 
  "&@@": 952, 
  "Bos@@": 953, 
  "mes": 954, 
  "the@@": 955, 
  "ity": 956, 
  "!": 957, 
  "pres@@": 958, 
  "Turk@@": 959, 
  "ish": 960, 
  "ong": 961, 
  "Min@@": 962, 
  "his": 963, 
  "ts": 964, 
  "the": 965, 
  "Belgra@@": 966, 
  "Uni@@": 967, 
  "ovic": 968, 
  "for": 969, 
  "cial": 970, 
  "use": 971, 
  "dent": 972, 
  "med": 973, 
  "qu@@": 974, 
  "one": 975, 
  "gh@@": 976, 
  "+": 977, 
  "lic": 978, 
  "elec@@": 979, 
  "tions": 980, 
  "q@@": 981, 
  "oun@@": 982, 
  "ation": 983, 
  "gro@@": 984, 
  "com@@": 985, 
  "ich": 986, 
  "ted": 987, 
  "ters": 988, 
  "wo@@": 989, 
  "ith": 990, 
  "rom": 991, 
  "Q@@": 992, 
  "ean": 993, 
  "cri@@": 994, 
  "th": 995, 
  "U": 996, 
  "ance": 997, 
  "Alban@@": 998, 
  "nav@@": 999, 
  "‘": 1000, 
  "con@@": 1001, 
  "has": 1002, 
  "Hırvati@@": 1003, 
  "EU": 1004, 
  "ex@@": 1005, 
  "not": 1006, 
  "adar": 1007, 
  "İ": 1008, 
  "tes": 1009, 
  "onom@@": 1010, 
  "ill": 1011, 
  "ght": 1012, 
  "more": 1013, 
  "our": 1014, 
  "ars": 1015, 
  "leg@@": 1016, 
  "BiH": 1017, 
  "ous": 1018, 
  "ly": 1019, 
  "Croatia": 1020, 
  "ting": 1021, 
  "wor@@": 1022, 
  "ens": 1023, 
  "led": 1024, 
  "key": 1025, 
  "Ö": 1026, 
  "Belgrade": 1027, 
  "Ç": 1028, 
  "beli@@": 1029, 
  "ast": 1030, 
  "sion": 1031, 
  "ment": 1032, 
  "inv@@": 1033, 
  "ies": 1034, 
  "uslar@@": 1035, 
  "ure": 1036, 
  "ruc@@": 1037, 
  "so": 1038, 
  "als": 1039, 
  "þ@@": 1040, 
  "ons": 1041, 
  "jo@@": 1042, 
  "ms": 1043, 
  "Serbian": 1044, 
  "ain@@": 1045, 
  "ñ@@": 1046, 
  "onal": 1047, 
  "cy": 1048, 
  "J": 1049, 
  "ors": 1050, 
  "ds": 1051, 
  "Kosovo": 1052, 
  "out": 1053, 
  "It": 1054, 
  "Ü": 1055, 
  "cal": 1056, 
  "é@@": 1057, 
  "sec@@": 1058, 
  "á@@": 1059, 
  "ree": 1060, 
  "Macedonia": 1061, 
  "hur@@": 1062, 
  "igh@@": 1063, 
  "ister": 1064, 
  "ational": 1065, 
  "wel@@": 1066, 
  "old": 1067, 
  "ople": 1068, 
  "Q": 1069, 
  "Sou@@": 1070, 
  "In": 1071, 
  "FP": 1072, 
  "Turkey": 1073, 
  "co-@@": 1074, 
  "from": 1075, 
  "tion": 1076, 
  "pub@@": 1077, 
  "pec@@": 1078, 
  "ges": 1079, 
  "Ý@@": 1080, 
  "ther": 1081, 
  "Croati@@": 1082, 
  "é": 1083, 
  "over@@": 1084, 
  "ffic@@": 1085, 
  "able": 1086, 
  "ary": 1087, 
  "Cro@@": 1088
}